1AC0052
192FF63
183001F
1B30034
173FF96
18CFF75
1C1FFEF
19FFFC7
036000C
1B40083
170005A
071FFD8
083FF9F
162FF84
1B3008F
07BFF8C
1AA0062
19D008D
046FFDE
181006E
1C70093
1EEFF9A
1DCFFD3
015FFFB
1E3002F
04EFFDC
017000E
1E5FFF1
022002F
18EFFB9
1EBFF94
1F5FFD7
077FFE3
17B007A
1B5003B
1820076
0150084
16DFFAF
1E5004C
04DFFA5
02B0095
174FFDE
0620040
051003C
189FFB7
1AF0079
07D0006
16DFFBF
1740041
054FFCD
03EFFC6
1AC0001
069FFF2
197FF82
013FFCC
17F007B
1710042
04A008F
1C7FFE2
1B20055
005001C
17BFFD7
060002D
1CDFFCA
075FFE0
01BFFD5
1D1FFC1
05F004D
1B40034
177FFF5
0130021
0550035
1D3FFCE
0550074
1950039
1B1006D
17B007B
0340064
079FFEF
024001A
081FFDA
0270079
1EF0005
04A0040
049FFCC
0940099
000FFDB
196000D
059009B
0370032
1DD0067
067FFF0
1BE000F
053FFB1
002FFE1
043FFD6
04B007A
1A20042
1FEFF8E
1E60030
010FFE1
03D0077
1E8FFE4
1FFFFA7
064FF8D
027002F
1F8FFB1
1C9001B
04B005E
174FF93
19D0014
060FFEE
05DFF88
01BFF8A
1840045
01EFF7C
1CF005E
1F6FF94
09AFFBA
01F0080
182FFA6
1EC001C
1860080
098FFB9
1C30098
1B30042
1EE003B
1F80072
044000E
07F008C
1F50023
006FFF3
052003F
05CFF9A
1CD0040
1F5FF94
03FFFBA
06E007F
18C0017
1990054
0610062
01A007E
071FFB0
08C009B
